TRT-8501-EntropyCalibration2
images: 3c04c993
/model.0/conv/Conv_output_0: 3e4f57a0
/model.0/act/Sigmoid_output_0: 3c010a14
/model.0/act/Mul_output_0: 3dd40f6d
/model.1/conv/Conv_output_0: 3e8d016a
/model.1/act/Sigmoid_output_0: 3c010a14
/model.1/act/Mul_output_0: 3de9fcf7
/model.2/cv1/conv/Conv_output_0: 3e168312
/model.2/cv1/act/Sigmoid_output_0: 3c0231cd
/model.2/cv1/act/Mul_output_0: 3d011444
/model.2/m/m.0/cv1/conv/Conv_output_0: 3e0f462e
/model.2/m/m.0/cv1/act/Sigmoid_output_0: 3c010204
/model.2/m/m.0/cv1/act/Mul_output_0: 3d26d146
/model.2/m/m.0/cv2/conv/Conv_output_0: 3da091f8
/model.2/m/m.0/cv2/act/Sigmoid_output_0: 3c010c26
/model.2/m/m.0/cv2/act/Mul_output_0: 3d02e21c
/model.2/m/m.0/Add_output_0: 3d7dd65d
/model.2/m/m.1/cv1/conv/Conv_output_0: 3db512d2
/model.2/m/m.1/cv1/act/Sigmoid_output_0: 3c010d5c
/model.2/m/m.1/cv1/act/Mul_output_0: 3d27e65d
/model.2/m/m.1/cv2/conv/Conv_output_0: 3d927a69
/model.2/m/m.1/cv2/act/Sigmoid_output_0: 3c00d6d9
/model.2/m/m.1/cv2/act/Mul_output_0: 3d027e85
/model.2/m/m.1/Add_output_0: 3d8da8a2
/model.2/m/m.2/cv1/conv/Conv_output_0: 3d8ecf92
/model.2/m/m.2/cv1/act/Sigmoid_output_0: 3c00be13
/model.2/m/m.2/cv1/act/Mul_output_0: 3cea0d6c
/model.2/m/m.2/cv2/conv/Conv_output_0: 3d874525
/model.2/m/m.2/cv2/act/Sigmoid_output_0: 3c00ee9d
/model.2/m/m.2/cv2/act/Mul_output_0: 3d102fca
/model.2/m/m.2/Add_output_0: 3db7eca8
/model.2/m/m.3/cv1/conv/Conv_output_0: 3d84b8df
/model.2/m/m.3/cv1/act/Sigmoid_output_0: 3c00439a
/model.2/m/m.3/cv1/act/Mul_output_0: 3c9a5deb
/model.2/m/m.3/cv2/conv/Conv_output_0: 3d94cb36
/model.2/m/m.3/cv2/act/Sigmoid_output_0: 3c00d548
/model.2/m/m.3/cv2/act/Mul_output_0: 3d11c259
/model.2/m/m.3/Add_output_0: 3dd14491
/model.2/cv2/conv/Conv_output_0: 3e282a0e
/model.2/cv2/act/Sigmoid_output_0: 3c0111b1
/model.2/cv2/act/Mul_output_0: 3d6ae15f
/model.2/Concat_output_0: 3d921918
/model.2/cv3/conv/Conv_output_0: 3d898093
/model.2/cv3/act/Sigmoid_output_0: 3c005063
/model.2/cv3/act/Mul_output_0: 3c99546c
/model.3/conv/Conv_output_0: 3d7722f0
/model.3/act/Sigmoid_output_0: 3c00df4f
/model.3/act/Mul_output_0: 3c9648b4
/model.4/cv1/conv/Conv_output_0: 3d10b3d0
/model.4/cv1/act/Sigmoid_output_0: 3c004710
/model.4/cv1/act/Mul_output_0: 3d026d9f
/model.4/m/m.0/cv1/conv/Conv_output_0: 3d83f6f0
/model.4/m/m.0/cv1/act/Sigmoid_output_0: 3c00ed28
/model.4/m/m.0/cv1/act/Mul_output_0: 3d02c312
/model.4/m/m.0/cv2/conv/Conv_output_0: 3d3f2d8e
/model.4/m/m.0/cv2/act/Sigmoid_output_0: 3bfe265c
/model.4/m/m.0/cv2/act/Mul_output_0: 3c51b677
/model.4/m/m.0/Add_output_0: 3d0da8a7
/model.4/m/m.1/cv1/conv/Conv_output_0: 3d801379
/model.4/m/m.1/cv1/act/Sigmoid_output_0: 3c00f068
/model.4/m/m.1/cv1/act/Mul_output_0: 3cea3b11
/model.4/m/m.1/cv2/conv/Conv_output_0: 3d3ecf26
/model.4/m/m.1/cv2/act/Sigmoid_output_0: 3bffd437
/model.4/m/m.1/cv2/act/Mul_output_0: 3c91dd2e
/model.4/m/m.1/Add_output_0: 3d156848
/model.4/m/m.2/cv1/conv/Conv_output_0: 3d7f290e
/model.4/m/m.2/cv1/act/Sigmoid_output_0: 3c00ed3a
/model.4/m/m.2/cv1/act/Mul_output_0: 3cebc84c
/model.4/m/m.2/cv2/conv/Conv_output_0: 3d47e2c8
/model.4/m/m.2/cv2/act/Sigmoid_output_0: 3c008f2a
/model.4/m/m.2/cv2/act/Mul_output_0: 3c801fcb
/model.4/m/m.2/Add_output_0: 3d276fca
/model.4/m/m.3/cv1/conv/Conv_output_0: 3d8206f2
/model.4/m/m.3/cv1/act/Sigmoid_output_0: 3c00f6ed
/model.4/m/m.3/cv1/act/Mul_output_0: 3ca07400
/model.4/m/m.3/cv2/conv/Conv_output_0: 3d6157be
/model.4/m/m.3/cv2/act/Sigmoid_output_0: 3c00c1b9
/model.4/m/m.3/cv2/act/Mul_output_0: 3c88a866
/model.4/m/m.3/Add_output_0: 3d426625
/model.4/m/m.4/cv1/conv/Conv_output_0: 3d85dfae
/model.4/m/m.4/cv1/act/Sigmoid_output_0: 3c00fb60
/model.4/m/m.4/cv1/act/Mul_output_0: 3cd5152e
/model.4/m/m.4/cv2/conv/Conv_output_0: 3d52c4c1
/model.4/m/m.4/cv2/act/Sigmoid_output_0: 3c008241
/model.4/m/m.4/cv2/act/Mul_output_0: 3ca51008
/model.4/m/m.4/Add_output_0: 3d69b248
/model.4/m/m.5/cv1/conv/Conv_output_0: 3d70e7c3
/model.4/m/m.5/cv1/act/Sigmoid_output_0: 3c00a02b
/model.4/m/m.5/cv1/act/Mul_output_0: 3cd7309e
/model.4/m/m.5/cv2/conv/Conv_output_0: 3d5cfde1
/model.4/m/m.5/cv2/act/Sigmoid_output_0: 3c00e270
/model.4/m/m.5/cv2/act/Mul_output_0: 3cc0e906
/model.4/m/m.5/Add_output_0: 3d806520
/model.4/m/m.6/cv1/conv/Conv_output_0: 3d70a942
/model.4/m/m.6/cv1/act/Sigmoid_output_0: 3c00e181
/model.4/m/m.6/cv1/act/Mul_output_0: 3cc05415
/model.4/m/m.6/cv2/conv/Conv_output_0: 3d6a15db
/model.4/m/m.6/cv2/act/Sigmoid_output_0: 3c00e758
/model.4/m/m.6/cv2/act/Mul_output_0: 3ce96089
/model.4/m/m.6/Add_output_0: 3d9a3557
/model.4/m/m.7/cv1/conv/Conv_output_0: 3d5e60f4
/model.4/m/m.7/cv1/act/Sigmoid_output_0: 3c00ca18
/model.4/m/m.7/cv1/act/Mul_output_0: 3cd73e2e
/model.4/m/m.7/cv2/conv/Conv_output_0: 3d890eef
/model.4/m/m.7/cv2/act/Sigmoid_output_0: 3c00ed2f
/model.4/m/m.7/cv2/act/Mul_output_0: 3d02dafc
/model.4/m/m.7/Add_output_0: 3db1aedd
/model.4/cv2/conv/Conv_output_0: 3db684cc
/model.4/cv2/act/Sigmoid_output_0: 3c0111f4
/model.4/cv2/act/Mul_output_0: 3d696ae3
/model.4/Concat_output_0: 3d98350d
/model.4/cv3/conv/Conv_output_0: 3d65f3d0
/model.4/cv3/act/Sigmoid_output_0: 3c010c73
/model.4/cv3/act/Mul_output_0: 3cc600d1
/model.5/conv/Conv_output_0: 3d717271
/model.5/act/Sigmoid_output_0: 3c00fc51
/model.5/act/Mul_output_0: 3d032128
/model.6/cv1/conv/Conv_output_0: 3d8e9a07
/model.6/cv1/act/Sigmoid_output_0: 3c010d31
/model.6/cv1/act/Mul_output_0: 3d2c1812
/model.6/m/m.0/cv1/conv/Conv_output_0: 3d94dfd2
/model.6/m/m.0/cv1/act/Sigmoid_output_0: 3c010f51
/model.6/m/m.0/cv1/act/Mul_output_0: 3d2c9d50
/model.6/m/m.0/cv2/conv/Conv_output_0: 3d4c3e63
/model.6/m/m.0/cv2/act/Sigmoid_output_0: 3c00c689
/model.6/m/m.0/cv2/act/Mul_output_0: 3c875b43
/model.6/m/m.0/Add_output_0: 3d7897ae
/model.6/m/m.1/cv1/conv/Conv_output_0: 3d83fdf1
/model.6/m/m.1/cv1/act/Sigmoid_output_0: 3c01047f
/model.6/m/m.1/cv1/act/Mul_output_0: 3d11e0b3
/model.6/m/m.1/cv2/conv/Conv_output_0: 3d5e4358
/model.6/m/m.1/cv2/act/Sigmoid_output_0: 3c00f121
/model.6/m/m.1/cv2/act/Mul_output_0: 3c9a4689
/model.6/m/m.1/Add_output_0: 3d7540be
/model.6/m/m.2/cv1/conv/Conv_output_0: 3d7b5b46
/model.6/m/m.2/cv1/act/Sigmoid_output_0: 3c00f553
/model.6/m/m.2/cv1/act/Mul_output_0: 3d152cd5
/model.6/m/m.2/cv2/conv/Conv_output_0: 3d6d9d00
/model.6/m/m.2/cv2/act/Sigmoid_output_0: 3c00b079
/model.6/m/m.2/cv2/act/Mul_output_0: 3c9a30e5
/model.6/m/m.2/Add_output_0: 3d849b50
/model.6/m/m.3/cv1/conv/Conv_output_0: 3d711557
/model.6/m/m.3/cv1/act/Sigmoid_output_0: 3c00d6da
/model.6/m/m.3/cv1/act/Mul_output_0: 3d127913
/model.6/m/m.3/cv2/conv/Conv_output_0: 3d528564
/model.6/m/m.3/cv2/act/Sigmoid_output_0: 3c00a438
/model.6/m/m.3/cv2/act/Mul_output_0: 3c901553
/model.6/m/m.3/Add_output_0: 3d8ae37d
/model.6/m/m.4/cv1/conv/Conv_output_0: 3d7af983
/model.6/m/m.4/cv1/act/Sigmoid_output_0: 3c00eb63
/model.6/m/m.4/cv1/act/Mul_output_0: 3d04a9c5
/model.6/m/m.4/cv2/conv/Conv_output_0: 3d4f2935
/model.6/m/m.4/cv2/act/Sigmoid_output_0: 3c00eaeb
/model.6/m/m.4/cv2/act/Mul_output_0: 3c910590
/model.6/m/m.4/Add_output_0: 3d998565
/model.6/m/m.5/cv1/conv/Conv_output_0: 3d7dceb5
/model.6/m/m.5/cv1/act/Sigmoid_output_0: 3c00eda0
/model.6/m/m.5/cv1/act/Mul_output_0: 3cd17016
/model.6/m/m.5/cv2/conv/Conv_output_0: 3d728713
/model.6/m/m.5/cv2/act/Sigmoid_output_0: 3c00e196
/model.6/m/m.5/cv2/act/Mul_output_0: 3ce92e67
/model.6/m/m.5/Add_output_0: 3da0d747
/model.6/m/m.6/cv1/conv/Conv_output_0: 3d7621db
/model.6/m/m.6/cv1/act/Sigmoid_output_0: 3c00f839
/model.6/m/m.6/cv1/act/Mul_output_0: 3cd14317
/model.6/m/m.6/cv2/conv/Conv_output_0: 3d6a6478
/model.6/m/m.6/cv2/act/Sigmoid_output_0: 3c00d9c6
/model.6/m/m.6/cv2/act/Mul_output_0: 3cec0254
/model.6/m/m.6/Add_output_0: 3db0c535
/model.6/m/m.7/cv1/conv/Conv_output_0: 3d84803b
/model.6/m/m.7/cv1/act/Sigmoid_output_0: 3c00e6df
/model.6/m/m.7/cv1/act/Mul_output_0: 3d02795c
/model.6/m/m.7/cv2/conv/Conv_output_0: 3d74ebde
/model.6/m/m.7/cv2/act/Sigmoid_output_0: 3c00fe06
/model.6/m/m.7/cv2/act/Mul_output_0: 3cb152d6
/model.6/m/m.7/Add_output_0: 3dbcdba4
/model.6/m/m.8/cv1/conv/Conv_output_0: 3d7905fe
/model.6/m/m.8/cv1/act/Sigmoid_output_0: 3c00fbb4
/model.6/m/m.8/cv1/act/Mul_output_0: 3cd5838f
/model.6/m/m.8/cv2/conv/Conv_output_0: 3d83258e
/model.6/m/m.8/cv2/act/Sigmoid_output_0: 3c011077
/model.6/m/m.8/cv2/act/Mul_output_0: 3ce74df9
/model.6/m/m.8/Add_output_0: 3dd98939
/model.6/m/m.9/cv1/conv/Conv_output_0: 3d877bd5
/model.6/m/m.9/cv1/act/Sigmoid_output_0: 3c00e1f8
/model.6/m/m.9/cv1/act/Mul_output_0: 3cc09e2e
/model.6/m/m.9/cv2/conv/Conv_output_0: 3d81dd61
/model.6/m/m.9/cv2/act/Sigmoid_output_0: 3c010c7c
/model.6/m/m.9/cv2/act/Mul_output_0: 3cc068ec
/model.6/m/m.9/Add_output_0: 3ddd326d
/model.6/m/m.10/cv1/conv/Conv_output_0: 3d82e7a0
/model.6/m/m.10/cv1/act/Sigmoid_output_0: 3c00eafa
/model.6/m/m.10/cv1/act/Mul_output_0: 3d0473e7
/model.6/m/m.10/cv2/conv/Conv_output_0: 3d89bde2
/model.6/m/m.10/cv2/act/Sigmoid_output_0: 3c010926
/model.6/m/m.10/cv2/act/Mul_output_0: 3d15363f
/model.6/m/m.10/Add_output_0: 3dddb6fe
/model.6/m/m.11/cv1/conv/Conv_output_0: 3d8421db
/model.6/m/m.11/cv1/act/Sigmoid_output_0: 3c00a6ef
/model.6/m/m.11/cv1/act/Mul_output_0: 3cb14a89
/model.6/m/m.11/cv2/conv/Conv_output_0: 3d90cade
/model.6/m/m.11/cv2/act/Sigmoid_output_0: 3c010efc
/model.6/m/m.11/cv2/act/Mul_output_0: 3d2a95c7
/model.6/m/m.11/Add_output_0: 3e05700f
/model.6/cv2/conv/Conv_output_0: 3dbf6edc
/model.6/cv2/act/Sigmoid_output_0: 3c0111fd
/model.6/cv2/act/Mul_output_0: 3d6e1498
/model.6/Concat_output_0: 3dcf5e0e
/model.6/cv3/conv/Conv_output_0: 3d780c45
/model.6/cv3/act/Sigmoid_output_0: 3c00f874
/model.6/cv3/act/Mul_output_0: 3cd185b7
/model.7/conv/Conv_output_0: 3d82ffc9
/model.7/act/Sigmoid_output_0: 3c011101
/model.7/act/Mul_output_0: 3d1167db
/model.8/cv1/conv/Conv_output_0: 3d867444
/model.8/cv1/act/Sigmoid_output_0: 3c010db4
/model.8/cv1/act/Mul_output_0: 3cd152bc
/model.8/m/m.0/cv1/conv/Conv_output_0: 3d89a48f
/model.8/m/m.0/cv1/act/Sigmoid_output_0: 3c020617
/model.8/m/m.0/cv1/act/Mul_output_0: 3d29fe56
/model.8/m/m.0/cv2/conv/Conv_output_0: 3d82f6b6
/model.8/m/m.0/cv2/act/Sigmoid_output_0: 3c00e86d
/model.8/m/m.0/cv2/act/Mul_output_0: 3cc05cce
/model.8/m/m.0/Add_output_0: 3d8c6b46
/model.8/m/m.1/cv1/conv/Conv_output_0: 3d763326
/model.8/m/m.1/cv1/act/Sigmoid_output_0: 3c00f1e8
/model.8/m/m.1/cv1/act/Mul_output_0: 3ce6c3c3
/model.8/m/m.1/cv2/conv/Conv_output_0: 3d53cf24
/model.8/m/m.1/cv2/act/Sigmoid_output_0: 3c00ded0
/model.8/m/m.1/cv2/act/Mul_output_0: 3ce9fdd5
/model.8/m/m.1/Add_output_0: 3d82d479
/model.8/m/m.2/cv1/conv/Conv_output_0: 3d73eac3
/model.8/m/m.2/cv1/act/Sigmoid_output_0: 3c00f960
/model.8/m/m.2/cv1/act/Mul_output_0: 3ce95d1d
/model.8/m/m.2/cv2/conv/Conv_output_0: 3d614e57
/model.8/m/m.2/cv2/act/Sigmoid_output_0: 3c00eaa9
/model.8/m/m.2/cv2/act/Mul_output_0: 3d14f482
/model.8/m/m.2/Add_output_0: 3d98626b
/model.8/m/m.3/cv1/conv/Conv_output_0: 3d5df6ac
/model.8/m/m.3/cv1/act/Sigmoid_output_0: 3c00e8dd
/model.8/m/m.3/cv1/act/Mul_output_0: 3ce5d47a
/model.8/m/m.3/cv2/conv/Conv_output_0: 3d6a1be6
/model.8/m/m.3/cv2/act/Sigmoid_output_0: 3c00d995
/model.8/m/m.3/cv2/act/Mul_output_0: 3ce8b821
/model.8/m/m.3/Add_output_0: 3db39e0c
/model.8/cv2/conv/Conv_output_0: 3d9fb11e
/model.8/cv2/act/Sigmoid_output_0: 3c011158
/model.8/cv2/act/Mul_output_0: 3d252011
/model.8/Concat_output_0: 3d6fe88e
/model.8/cv3/conv/Conv_output_0: 3d71a984
/model.8/cv3/act/Sigmoid_output_0: 3c00d53b
/model.8/cv3/act/Mul_output_0: 3ce8e7db
/model.9/cv1/conv/Conv_output_0: 3d60108a
/model.9/cv1/act/Sigmoid_output_0: 3c00eca3
/model.9/cv1/act/Mul_output_0: 3d29c66c
/model.9/m/MaxPool_output_0: 3d29c66c
/model.9/m_1/MaxPool_output_0: 3d29c66c
/model.9/m_2/MaxPool_output_0: 3d29c66c
/model.9/Concat_output_0: 3d6c5e65
/model.9/cv2/conv/Conv_output_0: 3d8fd128
/model.9/cv2/act/Sigmoid_output_0: 3c00ac7e
/model.9/cv2/act/Mul_output_0: 3d012687
/model.10/conv/Conv_output_0: 3d867392
/model.10/act/Sigmoid_output_0: 3c02003a
/model.10/act/Mul_output_0: 3d031f05
/model.11/Resize_output_0: 3d031f05
/model.12/Concat_output_0: 3cd185b7
/model.13/cv1/conv/Conv_output_0: 3d7389d7
/model.13/cv1/act/Sigmoid_output_0: 3c00b197
/model.13/cv1/act/Mul_output_0: 3d023b6a
/model.13/m/m.0/cv1/conv/Conv_output_0: 3d81cd0b
/model.13/m/m.0/cv1/act/Sigmoid_output_0: 3c00f47a
/model.13/m/m.0/cv1/act/Mul_output_0: 3d148ec2
/model.13/m/m.0/cv2/conv/Conv_output_0: 3d7d462e
/model.13/m/m.0/cv2/act/Sigmoid_output_0: 3c00e125
/model.13/m/m.0/cv2/act/Mul_output_0: 3cc01c02
/model.13/m/m.1/cv1/conv/Conv_output_0: 3d7be696
/model.13/m/m.1/cv1/act/Sigmoid_output_0: 3c0104b1
/model.13/m/m.1/cv1/act/Mul_output_0: 3ce8c022
/model.13/m/m.1/cv2/conv/Conv_output_0: 3d7fb87a
/model.13/m/m.1/cv2/act/Sigmoid_output_0: 3c0107ef
/model.13/m/m.1/cv2/act/Mul_output_0: 3cea6422
/model.13/m/m.2/cv1/conv/Conv_output_0: 3d7afa7c
/model.13/m/m.2/cv1/act/Sigmoid_output_0: 3c010937
/model.13/m/m.2/cv1/act/Mul_output_0: 3d031f71
/model.13/m/m.2/cv2/conv/Conv_output_0: 3d67bf4f
/model.13/m/m.2/cv2/act/Sigmoid_output_0: 3c00f7e2
/model.13/m/m.2/cv2/act/Mul_output_0: 3cd0e0e4
/model.13/m/m.3/cv1/conv/Conv_output_0: 3d6d7ea3
/model.13/m/m.3/cv1/act/Sigmoid_output_0: 3c010213
/model.13/m/m.3/cv1/act/Mul_output_0: 3ce9a830
/model.13/m/m.3/cv2/conv/Conv_output_0: 3d53503b
/model.13/m/m.3/cv2/act/Sigmoid_output_0: 3c00b428
/model.13/m/m.3/cv2/act/Mul_output_0: 3d02d815
/model.13/cv2/conv/Conv_output_0: 3d800eed
/model.13/cv2/act/Sigmoid_output_0: 3c00f317
/model.13/cv2/act/Mul_output_0: 3cd16baf
/model.13/Concat_output_0: 3cd16baf
/model.13/cv3/conv/Conv_output_0: 3d7f49b5
/model.13/cv3/act/Sigmoid_output_0: 3c00d802
/model.13/cv3/act/Mul_output_0: 3d12eeea
/model.14/conv/Conv_output_0: 3d5cc806
/model.14/act/Sigmoid_output_0: 3c00df4a
/model.14/act/Mul_output_0: 3cea1d45
/model.15/Resize_output_0: 3cea1d45
/model.16/Concat_output_0: 3cc600d1
/model.17/cv1/conv/Conv_output_0: 3d36f963
/model.17/cv1/act/Sigmoid_output_0: 3bfe6015
/model.17/cv1/act/Mul_output_0: 3c91ef5f
/model.17/m/m.0/cv1/conv/Conv_output_0: 3d3ef6ba
/model.17/m/m.0/cv1/act/Sigmoid_output_0: 3bff6b33
/model.17/m/m.0/cv1/act/Mul_output_0: 3d11056f
/model.17/m/m.0/cv2/conv/Conv_output_0: 3d411b73
/model.17/m/m.0/cv2/act/Sigmoid_output_0: 3c0050d4
/model.17/m/m.0/cv2/act/Mul_output_0: 3c998f92
/model.17/m/m.1/cv1/conv/Conv_output_0: 3d63cd6d
/model.17/m/m.1/cv1/act/Sigmoid_output_0: 3c00a143
/model.17/m/m.1/cv1/act/Mul_output_0: 3cb2b2e8
/model.17/m/m.1/cv2/conv/Conv_output_0: 3d4aebce
/model.17/m/m.1/cv2/act/Sigmoid_output_0: 3c008510
/model.17/m/m.1/cv2/act/Mul_output_0: 3cc36339
/model.17/m/m.2/cv1/conv/Conv_output_0: 3d5e5007
/model.17/m/m.2/cv1/act/Sigmoid_output_0: 3c00d162
/model.17/m/m.2/cv1/act/Mul_output_0: 3cd50873
/model.17/m/m.2/cv2/conv/Conv_output_0: 3d550c08
/model.17/m/m.2/cv2/act/Sigmoid_output_0: 3c00ec02
/model.17/m/m.2/cv2/act/Mul_output_0: 3cd2efbf
/model.17/m/m.3/cv1/conv/Conv_output_0: 3d78523f
/model.17/m/m.3/cv1/act/Sigmoid_output_0: 3c00fb28
/model.17/m/m.3/cv1/act/Mul_output_0: 3d02530e
/model.17/m/m.3/cv2/conv/Conv_output_0: 3daab569
/model.17/m/m.3/cv2/act/Sigmoid_output_0: 3c00f9bf
/model.17/m/m.3/cv2/act/Mul_output_0: 3d25fff8
/model.17/cv2/conv/Conv_output_0: 3d5455ac
/model.17/cv2/act/Sigmoid_output_0: 3c009a95
/model.17/cv2/act/Mul_output_0: 3ce9a90b
/model.17/Concat_output_0: 3d01029a
/model.17/cv3/conv/Conv_output_0: 3df57d3d
/model.17/cv3/act/Sigmoid_output_0: 3c021425
/model.17/cv3/act/Mul_output_0: 3d9854e3
/model.18/conv/Conv_output_0: 3d8a35f3
/model.18/act/Sigmoid_output_0: 3c01790c
/model.18/act/Mul_output_0: 3d29a0a4
/model.19/Concat_output_0: 3d03cf15
/model.20/cv1/conv/Conv_output_0: 3d744b05
/model.20/cv1/act/Sigmoid_output_0: 3c00f8e0
/model.20/cv1/act/Mul_output_0: 3cd20215
/model.20/m/m.0/cv1/conv/Conv_output_0: 3d761987
/model.20/m/m.0/cv1/act/Sigmoid_output_0: 3c00e5ae
/model.20/m/m.0/cv1/act/Mul_output_0: 3d02264b
/model.20/m/m.0/cv2/conv/Conv_output_0: 3d71bd9b
/model.20/m/m.0/cv2/act/Sigmoid_output_0: 3c00d5fa
/model.20/m/m.0/cv2/act/Mul_output_0: 3cc2b4b5
/model.20/m/m.1/cv1/conv/Conv_output_0: 3d776ff6
/model.20/m/m.1/cv1/act/Sigmoid_output_0: 3c00ff92
/model.20/m/m.1/cv1/act/Mul_output_0: 3cc80221
/model.20/m/m.1/cv2/conv/Conv_output_0: 3d81c5dc
/model.20/m/m.1/cv2/act/Sigmoid_output_0: 3c0110a6
/model.20/m/m.1/cv2/act/Mul_output_0: 3cbfde52
/model.20/m/m.2/cv1/conv/Conv_output_0: 3d876b9c
/model.20/m/m.2/cv1/act/Sigmoid_output_0: 3c0108fb
/model.20/m/m.2/cv1/act/Mul_output_0: 3d142d46
/model.20/m/m.2/cv2/conv/Conv_output_0: 3d8ada76
/model.20/m/m.2/cv2/act/Sigmoid_output_0: 3c0300d2
/model.20/m/m.2/cv2/act/Mul_output_0: 3d469ef8
/model.20/m/m.3/cv1/conv/Conv_output_0: 3d9689cf
/model.20/m/m.3/cv1/act/Sigmoid_output_0: 3c01fb2b
/model.20/m/m.3/cv1/act/Mul_output_0: 3d1380b4
/model.20/m/m.3/cv2/conv/Conv_output_0: 3da27d7a
/model.20/m/m.3/cv2/act/Sigmoid_output_0: 3c020492
/model.20/m/m.3/cv2/act/Mul_output_0: 3d27bc8b
/model.20/cv2/conv/Conv_output_0: 3d9d3718
/model.20/cv2/act/Sigmoid_output_0: 3c00d451
/model.20/cv2/act/Mul_output_0: 3ce75ced
/model.20/Concat_output_0: 3d27bc8b
/model.20/cv3/conv/Conv_output_0: 3dd5bdcf
/model.20/cv3/act/Sigmoid_output_0: 3c010a14
/model.20/cv3/act/Mul_output_0: 3d47d29f
/model.21/conv/Conv_output_0: 3d8d036a
/model.21/act/Sigmoid_output_0: 3c01332e
/model.21/act/Mul_output_0: 3d135670
/model.22/Concat_output_0: 3d135670
/model.23/cv1/conv/Conv_output_0: 3d688968
/model.23/cv1/act/Sigmoid_output_0: 3c00c6fe
/model.23/cv1/act/Mul_output_0: 3ce5fe29
/model.23/m/m.0/cv1/conv/Conv_output_0: 3d6cb9a0
/model.23/m/m.0/cv1/act/Sigmoid_output_0: 3c00e0cb
/model.23/m/m.0/cv1/act/Mul_output_0: 3d10ea20
/model.23/m/m.0/cv2/conv/Conv_output_0: 3d82f322
/model.23/m/m.0/cv2/act/Sigmoid_output_0: 3c010178
/model.23/m/m.0/cv2/act/Mul_output_0: 3cc02ea9
/model.23/m/m.1/cv1/conv/Conv_output_0: 3d81425c
/model.23/m/m.1/cv1/act/Sigmoid_output_0: 3c01042a
/model.23/m/m.1/cv1/act/Mul_output_0: 3d11b798
/model.23/m/m.1/cv2/conv/Conv_output_0: 3d881581
/model.23/m/m.1/cv2/act/Sigmoid_output_0: 3c00fd89
/model.23/m/m.1/cv2/act/Mul_output_0: 3d29ca57
/model.23/m/m.2/cv1/conv/Conv_output_0: 3d8cf5b2
/model.23/m/m.2/cv1/act/Sigmoid_output_0: 3c0306c5
/model.23/m/m.2/cv1/act/Mul_output_0: 3d282954
/model.23/m/m.2/cv2/conv/Conv_output_0: 3d8fb78b
/model.23/m/m.2/cv2/act/Sigmoid_output_0: 3c010a56
/model.23/m/m.2/cv2/act/Mul_output_0: 3d445b61
/model.23/m/m.3/cv1/conv/Conv_output_0: 3d8cff95
/model.23/m/m.3/cv1/act/Sigmoid_output_0: 3c00fe6b
/model.23/m/m.3/cv1/act/Mul_output_0: 3d11eb8b
/model.23/m/m.3/cv2/conv/Conv_output_0: 3d8c228c
/model.23/m/m.3/cv2/act/Sigmoid_output_0: 3c010d90
/model.23/m/m.3/cv2/act/Mul_output_0: 3d28c6b9
/model.23/cv2/conv/Conv_output_0: 3d9a2e1c
/model.23/cv2/act/Sigmoid_output_0: 3c0101bb
/model.23/cv2/act/Mul_output_0: 3ce94031
/model.23/Concat_output_0: 3d28c6b9
/model.23/cv3/conv/Conv_output_0: 3d9f19a7
/model.23/cv3/act/Sigmoid_output_0: 3c0213f8
/model.23/cv3/act/Mul_output_0: 3d26e488
/model.24/m.0/Conv_output_0: 3e1e79f3
/model.24/Reshape_output_0: 3e1e79f3
/model.24/Transpose_output_0: 3e1e79f3
/model.24/Sigmoid_output_0: 3bbd3fe1
/model.24/Split_output_0: 3bff0543
/model.24/Split_output_1: 3bff3f2b
/model.24/Split_output_2: 3b0d3215
(Unnamed Layer* 453) [Shuffle]_output: 3c810a14
/model.24/Mul_output_0: 3c7f0543
(Unnamed Layer* 455) [Constant]_output: 3f1e465d
/model.24/Add_output_0: 3f208c15
(Unnamed Layer* 458) [Shuffle]_output: 3d810a14
/model.24/Mul_1_output_0: 40a08c15
(Unnamed Layer* 461) [Shuffle]_output: 3c810a14
/model.24/Mul_2_output_0: 3c7f3f2b
(Unnamed Layer* 464) [Shuffle]_output: 3c810a14
/model.24/Pow_output_0: 3cff7aad
(Unnamed Layer* 466) [Constant]_output: 3e851265
/model.24/Mul_3_output_0: 3f80d6b0
/model.24/Concat_output_0: 40a08c15
/model.24/Reshape_1_output_0: 40a08c15
/model.24/m.1/Conv_output_0: 3dfe8ab3
/model.24/Reshape_2_output_0: 3dfe8ab3
/model.24/Transpose_1_output_0: 3dfe8ab3
/model.24/Sigmoid_1_output_0: 3b80323a
/model.24/Split_1_output_0: 3bfd9377
/model.24/Split_1_output_1: 3c006241
/model.24/Split_1_output_2: 3ad6415a
(Unnamed Layer* 478) [Shuffle]_output: 3c810a14
/model.24/Mul_4_output_0: 3c7d9377
(Unnamed Layer* 480) [Constant]_output: 3e9b4020
/model.24/Add_1_output_0: 3eabeb98
(Unnamed Layer* 483) [Shuffle]_output: 3e010a14
/model.24/Mul_5_output_0: 40abeb98
(Unnamed Layer* 486) [Shuffle]_output: 3c810a14
/model.24/Mul_6_output_0: 3c806241
(Unnamed Layer* 489) [Shuffle]_output: 3c810a14
/model.24/Pow_1_output_0: 3d03ebe1
(Unnamed Layer* 491) [Constant]_output: 3f6feebd
/model.24/Mul_7_output_0: 4077971c
/model.24/Concat_1_output_0: 409f4d05
/model.24/Reshape_3_output_0: 409f4d05
/model.24/m.2/Conv_output_0: 3df9c6f5
/model.24/Reshape_4_output_0: 3df9c6f5
/model.24/Transpose_2_output_0: 3df9c6f5
/model.24/Sigmoid_2_output_0: 3b7e81d9
/model.24/Split_2_output_0: 3c01572e
/model.24/Split_2_output_1: 3c01ec3e
/model.24/Split_2_output_2: 3abb6f4e
(Unnamed Layer* 503) [Shuffle]_output: 3c810a14
/model.24/Mul_8_output_0: 3c81572e
(Unnamed Layer* 505) [Constant]_output: 3e1533a7
/model.24/Add_2_output_0: 3e1e8e1a
(Unnamed Layer* 508) [Shuffle]_output: 3e810a14
/model.24/Mul_9_output_0: 409e8e1a
(Unnamed Layer* 511) [Shuffle]_output: 3c810a14
/model.24/Mul_10_output_0: 3c81ec3e
(Unnamed Layer* 514) [Shuffle]_output: 3c810a14
/model.24/Pow_2_output_0: 3d01ddc2
(Unnamed Layer* 516) [Constant]_output: 403c03af
/model.24/Mul_11_output_0: 40bf4870
/model.24/Concat_2_output_0: 40a50880
/model.24/Reshape_5_output_0: 40a50880
output0: 40a0d1fe
